memory_initialization_radix=16;
memory_initialization_vector=
0f578f0bd4aa00009d6372a9531528b900009dd31f578f0bd42a00009f9f70a9511528bd0000a0530fdeaf4212d30000a38d0fdeaf4212d30000b218784c263b,
29a3b2a4a10f00002f6370ae515128b10000331874499d261dde00003a7070a95915289d00003cd529be7140d56100003f6129ba71e0856100004099784c263b;