memory_initialization_radix=16;
memory_initialization_vector=
07e20000ba7369ba7170e5610000bab271ba71e0d5690000bed2ccadd1d02b440000bf720fdeaf4212d30000c206e7d8d8306c11000004c2c7d8d8306c110000,
07e2000042bd6758d8704c5000004563c6d8d9f02a1400004802784c263b07f200004d4f0fdeaf4216d200005aaf74499d061dde00005bfcd3b847a4c8210000;